/conv1/conv/Conv_param_0 83.561150 165.524216 134.913574 328.318542 181.202896 251.671631 177.821808 79.218292 
/conv2/conv/Conv_param_0 281.606232 264.586212 339.940796 253.103516 290.058289 264.586212 318.757812 264.586212 460.837372 264.586212 264.586212 336.923615 290.058289 281.606232 264.586212 253.103516 
/conv3/conv/Conv_param_0 253.247620 224.224152 238.262314 211.825729 224.224152 253.247620 211.825729 211.825729 211.825729 238.262314 211.825729 211.825729 211.825729 211.825729 253.247620 224.224152 373.366364 224.224152 211.825729 211.825729 211.825729 224.224152 211.825729 253.247620 224.224152 224.224152 224.224152 224.224152 211.825729 224.224152 211.825729 211.825729 
/conv1/conv/Conv inf 
/conv2/conv/Conv 11477.715820 
/conv3/conv/Conv 5752.238770 
